116F
C2D2
CF1F
CF2B
EF7F
DFAA
ECE5
E0E8
F1FA
F632
1165
23B6
E370
2AB8
1DDD
287F
D888
CA08
0DB4
1908
CFC5
CDCF
0C26
26C6
2711
CD04
1CB9
3227
FA11
CAAF
DFDF
1CCB
C6EF
F6A0
04FF
385C
DBDA
D05B
1229
CF5F
3C0B
E0BF
0D35
2754
28FD
FEA4
2061
338D
31CC
