F391
E3D6
E99A
1619
0959
18DA
004E
DA62
DC9A
FA6F
E187
F1A4
11E1
17DC
050E
E583
0F02
D8C7
25FE
FF56
F611
EBEF
DF94
043C
F1C5
235E
2983
FBDA
DF57
F05C
09AE
1C28
1F22
FDE2
DF69
11B9
27FE
203C
F521
EA69
2BEE
16F2
FEC0
02DA
F569
29F4
ECF6
FF2A
05CA
