2A70
D6EF
EAB8
D1D5
006D
1BA2
E9A8
E3B9
EEA1
FB30
1871
0105
F3E7
29C0
2FE7
0D35
DA1D
0C2E
F3F5
3293
EA0D
153B
03A0
E06A
1381
D1B7
DF82
D139
27A5
22FC
D8B0
F6C7
D8E6
076C
2E45
E6EB
3270
F089
E1FD
1113
30BC
0CA2
D310
F2FA
DDA3
E455
D1E5
295D
1E32
F2ED
2230
1A22
0C8C
F519
F183
D5AB
EFB3
0503
FBF0
0EFA
0164
205F
D687
FC44
