0DD9
337E
0E3E
0AA8
2B67
0783
EE8B
307D
F9A1
0AC5
175D
12F6
E188
D3A0
E814
26FB
064C
FC40
F89B
1D10
1053
10BB
DC0C
F8D4
008A
F2C7
FDEB
EF49
1D65
F3B1
1670
FDFA
184F
2E69
01D5
2AC1
E21C
2796
D3BD
FC55
CD4B
20B3
DDF9
DC82
DE3A
144E
E1A4
EA96
1C76
001F
2B6E
D11A
F94B
07AA
06E7
2259
D857
EACD
CB31
2FD9
1C3F
1AA8
D9B2
F005
