CONTENT BEGIN 
 0	:	0DD9;
 1	:	337E;
 2	:	0E3E;
 3	:	0AA8;
 4	:	2B67;
 5	:	0783;
 6	:	EE8B;
 7	:	307D;
 8	:	F9A1;
 9	:	0AC5;
10	:	175D;
11	:	12F6;
12	:	E188;
13	:	D3A0;
14	:	E814;
15	:	26FB;
16	:	064C;
17	:	FC40;
18	:	F89B;
19	:	1D10;
20	:	1053;
21	:	10BB;
22	:	DC0C;
23	:	F8D4;
24	:	008A;
25	:	F2C7;
26	:	FDEB;
27	:	EF49;
28	:	1D65;
29	:	F3B1;
30	:	1670;
31	:	FDFA;
32	:	184F;
33	:	2E69;
34	:	01D5;
35	:	2AC1;
36	:	E21C;
37	:	2796;
38	:	D3BD;
39	:	FC55;
40	:	CD4B;
41	:	20B3;
42	:	DDF9;
43	:	DC82;
44	:	DE3A;
45	:	144E;
46	:	E1A4;
47	:	EA96;
48	:	1C76;
49	:	001F;
50	:	2B6E;
51	:	D11A;
52	:	F94B;
53	:	07AA;
54	:	06E7;
55	:	2259;
56	:	D857;
57	:	EACD;
58	:	CB31;
59	:	2FD9;
60	:	1C3F;
61	:	1AA8;
62	:	D9B2;
63	:	F005;
END;